0000008e
0000008b
000000a3
00000102
00000087
0000001c
00000066
ffffff44
000000b8
ffffffe0
00000082
fffffebe
00000159
ffffff63
fffffffe
00000090
ffffff81
ffffff29
00000065
00000131
000000a3
000000c0
0000005c
000000e8
ffffff19
ffffff78
00000116
00000020
000000b7
00000108
00000061
ffffff59
0000003d
00000061
0000009a
0000000f
00000172
00000078
0000005f
ffffffc4
ffffff2f
00000000
0000007d
ffffff38
00000003
00000006
ffffffef
0000001f
ffffffad
0000000f
ffffff56
0000006e
00000050
ffffff8c
ffffffe3
fffffee5
0000017d
00000038
ffffffe1
ffffffe3
ffffffe9
0000004c
0000005d
ffffff16
ffffffbb
fffffea3
0000003f
ffffffab
00000010
0000006f
00000124
ffffff5e
fffffe99
fffffefd
00000196
ffffff2a
00000092
fffffff3
00000242
ffffff5d
ffffff61
000000be
000000d2
00000120
00000129
ffffff6f
ffffff69
000000ba
00000082
ffffffab
0000009b
00000050
ffffff37
000000f2
000000ae
00000066
0000009f
fffffdfa
ffffffba
00000159
00000039
00000046
000000b2
fffffe9a
00000021
0000005b
00000022
00000003
ffffff46
000000b7
0000009d
ffffff27
00000076
00000040
ffffff86
000000a1
0000009c
ffffff73
000000f0
0000001e
00000039
ffffff70
fffffffd
ffffff9b
00000044
00000033
00000095
ffffffb5
ffffff63
000000e6
00000085
000000d6
ffffff0d
0000006c
ffffff98
000000a5
0000005a
00000057
ffffff19
000000a7
000000d2
fffffef2
ffffffea
00000009
fffffff4
00000062
00000075
ffffffe5
00000169
0000007f
0000008b
0000004f
fffffff4
ffffffe9
ffffffb9
0000002a
000000df
ffffff7a
000000d7
00000055
fffffef8
0000007b
ffffff36
ffffff84
00000081
ffffff8d
0000005b
00000091
ffffff29
000000c0
0000000d
00000011
ffffffc2
ffffffe9
ffffff4b
00000022
fffffffa
ffffffda
ffffff23
00000047
000000a2
00000126
00000090
0000006d
ffffffae
00000090
ffffff89
fffffef4
ffffffb6
ffffffe8
ffffff97
0000010c
000000e6
00000039
000000d9
ffffffb8
ffffff78
fffffffb
ffffff63
ffffff08
fffffff5
00000000
ffffff95
000000d7
0000006e
ffffff8c
fffffff9
ffffffe9
ffffff8d
fffffffe
0000011b
ffffff6d
fffffe3a
000000ba
00000052
ffffffe0
ffffffd6
00000016
fffffe6d
ffffff92
000000a5
ffffff50
fffffe39
00000054
ffffffa5
00000071
00000009
ffffff2e
ffffffbe
fffffff6
00000142
ffffff50
fffffe6f
fffffe79
000001f7
000000b1
0000002b
0000001c
00000157
00000021
0000005a
ffffff2f
fffffe7c
0000007b
000000af
00000080
fffffef3
00000009
00000184
ffffff7a
0000004d
00000053
ffffffb4
ffffff75
0000011a
0000008f
ffffffe2
ffffff79
0000002e
ffffff55
000000c6
0000017d
00000010
ffffff9d
0000009e
00000110
ffffff6e
ffffff26
00000064
fffffeae
0000002a
00000021
ffffff07
0000009a
ffffffbc
fffffe8f
ffffff47
0000000c
ffffff8e
fffffe7a
00000073
00000095
ffffffe3
000000a7
0000005c
ffffff31
00000057
000000d7
ffffffa5
0000007f
00000095
ffffff36
fffffee4
00000006
00000063
ffffffbe
fffffea0
000000c8
ffffff73
00000006
0000012b
fffffe5f
fffffe7d
0000004e
0000003d
0000009a
00000040
000000cd
0000001b
ffffffa2
0000004d
000000c3
00000025
ffffffba
0000009b
0000019b
00000035
00000024
000000d8
00000034
000000dc
0000007e
0000007d
00000112
ffffff3b
ffffff9b
000000e4
00000079
00000106
00000017
ffffff21
ffffff75
0000019c
0000002d
00000181
00000128
ffffffbe
0000004d
fffffff1
fffffeee
00000012
0000001f
0000010d
000000eb
0000005d
00000109
fffffff5
00000083
00000078
ffffffb7
00000058
00000065
0000006a
00000163
00000035
00000039
00000004
00000117
00000006
00000061
fffffee9
ffffff27
00000091
00000095
000000ed
ffffff15
0000002c
ffffffe4
00000105
0000006d
ffffffec
ffffffe5
00000088
00000010
0000005c
ffffff74
000000c8
ffffffaa
00000164
ffffff32
fffffff9
00000039
0000000b
fffffe69
00000099
0000012a
0000000c
000000dc
00000020
ffffff54
0000005c
fffffffe
ffffff5d
ffffff81
000000f0
ffffffaa
0000008e
0000005c
ffffff0e
fffffffb
000000e5
ffffff6c
fffffef0
ffffff4f
00000061
00000082
ffffff43
0000006d
000000dc
0000001b
0000004c
ffffff23
ffffff6f
ffffff57
0000003c
000001be
00000010
000000da
fffffff2
0000000e
fffffe2e
fffffed9
ffffffd2
00000122
ffffffeb
000000bf
ffffffec
ffffff70
0000016d
00000055
fffffed7
ffffff8d
ffffffbd
00000194
000000cb
ffffff81
fffffe82
00000143
0000009e
000000e5
fffffe6c
0000003d
00000051
0000000a
0000009c
000000c0
fffffffe
0000003a
0000009d
ffffff7d
ffffff7d
ffffffba
ffffffe6
fffffff8
000000bc
0000011e
000000a2
000000b6
ffffffbd
ffffff26
0000006f
0000003a
ffffff23
fffffee6
ffffff4b
000000b3
00000174
ffffff94
00000141
fffffebb
00000104
00000017
000000b1
ffffff5a
00000000
0000007f
fffffe1e
0000008a
0000015a
ffffff75
ffffff08
0000000e
00000018
fffffea7
ffffffbe
00000089
000000a3
00000044
ffffff69
0000007a
00000064
ffffffd9
0000006c
ffffff43
0000003e
fffffff0
fffffeb7
ffffffba
0000003e
fffffff1
ffffff7d
000000cc
ffffff34
00000007
fffffee6
ffffffe8
ffffff95
ffffffcd
ffffffa3
0000009d
ffffffa3
00000007
000000b6
00000062
0000000e
ffffffca
fffffff0
00000107
00000127
00000166
00000007
ffffffba
000000b8
000000c9
0000007b
0000007b
ffffff49
ffffff82
ffffffcd
0000003e
ffffff70
00000062
00000100
000000a5
fffffeb7
ffffffa9
00000090
fffffe90
ffffffb5
000000d8
ffffffaa
ffffff6c
ffffffa5
00000010
fffffeaf
00000081
0000011f
0000002f
fffffff7
00000039
ffffff35
00000069
0000008a
000000cc
fffffe99
ffffff56
fffffe5a
fffffef1
ffffffb2
ffffff8f
000000e4
fffffeb6
ffffffe3
00000040
fffffedf
fffffef2
000000e7
000000fd
ffffff2b
0000010e
ffffff36
00000097
0000009b
ffffffd7
ffffffb2
0000008d
000001e5
ffffff76
000000dd
00000061
ffffff52
00000050
0000002c
ffffffa9
ffffffdd
ffffff30
00000187
ffffffd8
00000030
ffffffe5
000000fc
00000078
ffffffc9
00000035
ffffff11
ffffffaf
0000010d
fffffee2
0000005c
00000071
00000034
ffffff68
ffffff62
fffffff9
fffffec3
000000b5
000000e7
ffffff53
ffffffa2
ffffff89
00000047
ffffff3f
ffffff97
00000096
ffffff46
ffffff8c
ffffffa3
ffffff5c
00000041
00000007
ffffffea
fffffead
00000088
fffffffd
ffffff78
ffffffa9
ffffff6f
fffffed5
fffffff0
0000010d
ffffff3e
0000007a
00000133
00000120
fffffeba
ffffff2b
fffffe8c
fffffefd
ffffff96
ffffffe6
fffffff2
ffffffff
ffffffd2
0000001a
00000004
00000054
00000070
fffffff7
00000023
0000001d
fffffec5
ffffff14
fffffec6
fffffe82
0000007f
000000ac
00000069
0000009e
fffffddb
000002ba
fffffe58
00000050
fffffed9
fffffeb6
fffffef5
000001e8
fffffe17
fffffe91
0000015f
00000082
ffffffdf
000000e4
fffffffc
00000030
ffffff33
000001bc
00000114
ffffff01
fffffecf
ffffffe7
fffffed9
0000005d
fffffef4
fffffe0a
fffffd6f
fffffd7f
ffffff03
fffffd99
00000085
ffffff46
fffffd98
ffffff46
fffffc48
ffffffa6
000002b9
ffffff65
fffffd44
00000090
fffffcda
fffffe86
000001dc
fffffcb1
fffffc99
fffffe49
000000d7
fffffe49
00000014
fffffe87
ffffff66
fffffde8
00000049
ffffff6c
ffffffd7
0000020f
fffffc0b
000000c1
fffffe22
0000008b
0000002a
ffffffb7
00000017
000000c6
fffffffa
fffffdeb
00000119
fffffd0e
fffffe29
0000031e
fffffe71
ffffffe3
fffffd40
fffffee1
ffffff9c
fffffe73
000000d5
ffffff6e
000001a2
000000a9
fffffe1d
fffffe6b
fffffce8
fffffdee
0000029a
000000a6
ffffff3a
00000076
fffffea2
000000f1
ffffff3a
ffffff83
fffffe69
0000012e
ffffff0f
00000029
fffffe81
ffffffbc
ffffff8d
ffffff29
0000013d
000000e1